memory_initialization_radix = 16;
memory_initialization_vector = 
2f34,
2ecf,
30a0,
3524,
b290,
3693,
30f0,
ad0d,
b131,
b2d1,
32ae,
aac2,
335b,
ad60,
b400,
25bc,
b0c0,
3497,
2f9c,
9fe6,
2ecb,
b4da,
333a,
357e,
b474,
24fb,
3558,
b47d,
af4c,
b53c,
31b3,
30ac,
28e5,
b0c5,
b35c,
3479,
b257,
b3eb,
2de3,
27c9,
b1a7,
357c,
3642,
3617,
2994,
b49f,
3013,
2c0a,
2c6e,
a3d4,
32ed,
b516,
2d99,
2c62,
3083,
b4f4,
3354,
2ea9,
ae57,
2c0f,
3352,
ac63,
3059,
acd1,
3122,
a9f5,
b15d,
b27b,
14c4,
329f,
3117,
2d5e,
31a4,
25d4,
2e25,
b2ac,
2c07,
b514,
2c53,
a874,
2a3e,
3034,
360b,
2f51,
b6fc,
3881,
324c,
b301,
b1fc,
3418,
2f2b,
aaf6,
3510,
a831,
2de0,
3423,
b0da,
30ad,
30de,
35b0,
b51f,
b3a6,
29f1,
395d,
3085,
37d5,
367e,
b642,
b079,
b898,
381a,
9eca,
3361,
b8b9,
b2f8,
3183,
22b3,
b75b,
b103,
ad44,
b4b2,
3757,
3859,
2a93,
b4ee,
3501,
2f6c,
a32e,
b117,
b04b,
31c4,
b38f,
347b,
ad93,
32d3,
b504,
319b,
af2b,
b7a2,
b50d,
2ba8,
b5de,
ad10,
b32c,
32c7,
b4d1,
b581,
9928,
3257,
ad68,
afe7,
2a32,
31fc,
acd2,
2cfc,
b3b6,
220c,
b69a,
ace8,
298b,
a51b,
3048,
360d,
b470,
b8d2,
3747,
3773,
b52a,
ae5f,
31aa,
2f2d,
b8a3,
b006,
3515,
b833,
b023,
b604,
37a3,
ae41,
3b0b,
b92b,
b439,
b58a,
37ce,
30fa,
322e,
39fc,
b8e5,
2c04,
b77b,
3a36,
b757,
3942,
bbbf,
b916,
b89b,
b4ac,
bb05,
b332,
315e,
b39d,
39f6,
372a,
37a1,
19f2,
327a,
af9b,
2dc6,
3364,
b323,
32f9,
b68e,
3015,
a9cf,
36b4,
b874,
a92f,
aab7,
b4ab,
b5d6,
2c51,
b42a,
a827,
b18f,
3656,
b7db,
b81d,
2f1c,
3681,
3630,
31f8,
3470,
3822,
2ace,
2add,
b9e0,
b03b,
b521,
2442,
b356,
ab6a,
31c2,
3a25,
b4c8,
baa6,
3516,
39af,
b402,
adfd,
2fff,
36d4,
b9d0,
b2ee,
3927,
b5b6,
b856,
b8c3,
35be,
2ca6,
3c12,
ba29,
b54a,
b896,
3868,
1860,
370f,
3a89,
b9b5,
3126,
b957,
3870,
b915,
3a07,
bbc9,
bab4,
b9f7,
b7af,
bc47,
b458,
383e,
b46f,
3b3a,
36cd,
3888,
3392,
373b,
2b79,
284b,
38b6,
b2bf,
3948,
b88b,
36dd,
258d,
39d3,
b8af,
2d6f,
1be1,
b4aa,
b482,
38c8,
aa1a,
aefe,
b438,
3a2a,
baae,
b74d,
a894,
3461,
3690,
381b,
3520,
38b0,
aa79,
2e0d,
ba9b,
b369,
b88c,
b17d,
2921,
a3c1,
31c0,
3853,
b968,
bac2,
3760,
369c,
b43c,
ad6b,
b4d3,
3504,
b82e,
1c74,
37d3,
b657,
b6d7,
b91f,
379d,
320e,
3ad4,
ba56,
b839,
b911,
38e6,
309f,
382d,
3ac8,
b94d,
1fcb,
b88d,
3919,
b80c,
3814,
b9c0,
b8f4,
b5ef,
b4f1,
bd82,
b756,
2e5e,
b5ca,
3a24,
3a4b,
3721,
abea,
31a8,
33c6,
2c75,
3806,
ae73,
3604,
b880,
355e,
9812,
3750,
bc57,
3510,
310e,
b7cd,
b70d,
399d,
b3d4,
aa68,
b801,
360c,
ba6b,
b689,
36fb,
3666,
347b,
34fc,
332e,
3882,
26d3,
24f0,
b8d3,
b5b4,
b8b5,
3432,
2b86,
a025,
3298,
2f47,
bc99,
ba29,
374d,
2f0d,
2c28,
aef3,
b33d,
32cc,
b2b5,
2bdf,
37f9,
b72e,
adc9,
b804,
36e3,
347a,
377a,
b498,
b63c,
b61a,
38df,
2e58,
37dd,
37fe,
b639,
afcd,
b572,
36ec,
b003,
35e0,
b2f2,
b303,
ad0c,
28d4,
bc6c,
ae76,
b017,
af96,
3549,
373c,
aa5e,
a761,
316f,
355c,
9e2f,
3650,
adf5,
343d,
b6f2,
1d1f,
a579,
30e3,
b842,
330c,
ac23,
b673,
b47b,
34ff,
b85c,
31e4,
b597,
2ecc,
b70c,
aca1,
3aa8,
2d1d,
30cd,
a7c1,
2362,
3624,
a436,
ad72,
b682,
b896,
b52c,
af35,
b452,
ad0a,
31a8,
300b,
ba56,
b9dd,
3870,
36cf,
2c80,
b412,
2d78,
32fa,
2f11,
2263,
2fce,
309a,
a82a,
b680,
3467,
b4a4,
ac88,
a89d,
b82c,
b271,
3ab3,
2d9e,
3b9e,
2605,
ae1b,
b0b6,
ac95,
319a,
308c,
320a,
b4ce,
b0de,
b4eb,
27da,
b4ce,
b828,
b38e,
306b,
369d,
3537,
add4,
a1b8,
a9a7,
9c36,
2b19,
2f07,
2d4e,
3438,
b3af,
3819,
b024,
331c,
b325,
2ffe,
b310,
b1ef,
b419,
a22e,
b8c2,
2efa,
affa,
b1af,
2949,
2e4e,
395e,
324b,
b8cb,
b0d2,
1d48,
b179,
ac0b,
2d2a,
1d11,
b53a,
b613,
9ff6,
af51,
2d77,
35fa,
3549,
b882,
b936,
3beb,
3436,
b1ff,
b511,
b4fe,
2a17,
329f,
b085,
b0a2,
3677,
b3eb,
b297,
2c4f,
b6ee,
b559,
32c3,
b791,
34e3,
3bce,
321b,
3c82,
290d,
b5da,
2d8d,
b449,
343d,
37d6,
339f,
b67c,
a8ae,
b12d,
2cc3,
b246,
ba1a,
b300,
3601,
3631,
3660,
ae82,
b4a4,
30ac,
b6fc,
9797,
b3e7,
a956,
3495,
3252,
39d0,
2965,
34f1,
b088,
2529,
b79d,
b4a2,
b553,
2328,
b754,
9fe1,
aae9,
b23e,
378f,
aef6,
3833,
31dd,
ba0d,
b1e0,
a772,
b5ef,
2972,
2b6d,
ad37,
ab82,
b295,
33b5,
2f56,
2e94,
3462,
3973,
b51e,
b729,
340e,
3608,
3395,
b0f7,
2886,
3447,
ace8,
28a7,
b427,
2c08,
b25e,
b22a,
31bf,
b0da,
253b,
b43f,
aa93,
2fab,
37ee,
b0c1,
37a6,
33ca,
b195,
31b2,
b64e,
2ee7,
3391,
3363,
b81d,
b0cc,
2cea,
b1bd,
2c2a,
ace4,
3724,
3092,
36fe,
34b2,
31a5,
27cd,
284e,
b5ad,
1e03,
b3ee,
b02d,
38b5,
b433,
376c,
a1ca,
38d9,
31c8,
b12d,
b053,
2cae,
b62c,
3387,
328d,
330c,
b3cc,
2db7,
3630,
aef2,
2321,
3251,
a9d2,
37eb,
31c7,
32f6,
21b0,
2866,
b435,
ace4,
b4f9,
3046,
30b1,
2df4,
32b9,
30db,
b514,
b521,
b241,
2c3b,
32d1,
ab84,
300a,
3135,
a3f8,
2b38,
3097,
b248,
2a51,
ae4d,
b015,
29ff,
2555,
b394,
afe9,
b3e2,
b270,
b2ed,
291d,
2306,
2d0e,
b1fb,
b401,
b185,
a84d,
b140,
b566,
ae0f,
aa8f,
b053,
1c4d,
2887,
35af,
af08,
afe8,
b268,
a29d,
30e4,
2752,
b006,
2d10,
2f96,
32e7,
3337,
b360,
aa0e,
ad88,
314c,
3047,
3165,
25ab,
3348,
30af,
331c,
3480,
364e,
b161,
3446,
2eb1,
3022,
3375,
2d00,
ad7c,
34df,
31be,
2d95,
a9f2,
a06d,
a008,
1dfb,
b3a7,
3016,
2d1d,
365e,
9859,
b38c,
355f,
32b5,
a880,
244d,
32a2,
b591,
b623,
2eef,
349a,
3675,
3337,
303f,
af61,
b3fe,
af45,
251d,
338c,
2e27,
b060,
2ef6,
2ce5,
b180,
3159,
2920,
34a6,
b3c3,
3149,
1ff4,
b04e,
ae28,
3040,
b3cd,
1743,
320d,
b4e5,
33c3,
b4c2,
a037,
acc3,
1e33,
31e6,
21f1,
ac71,
2e2a,
2877,
31e2,
3580,
b441,
b36a,
b374,
2d80,
a51d,
3090,
3500,
2c09,
1df7,
302e,
261d,
35dd,
3590,
32c7,
28bb,
b870,
330f,
ae26,
b323,
3334,
b0ac,
310b,
2f9b,
2e04,
a4b2,
33a3,
b326,
b096,
3376,
b42c,
9c55,
350e,
b488,
36b1,
b244,
305a,
ab23,
afb0,
3003,
ac1a,
17b4,
30cb,
2c35,
2d23,
b594,
a990,
b6d7,
b63c,
b0ce,
3108,
2ed8,
b4cd,
b1fd,
3369,
37b3,
21eb,
3683,
b5ab,
a952,
3654,
3682,
b54a,
35dc,
3280,
b6c5,
ac71,
3106,
b768,
a5c4,
b690,
b3ad,
30ea,
30f7,
adef,
b17a,
34e0,
b151,
ada8,
289a,
b2a0,
b5df,
ab81,
b9e9,
2e01,
2648,
ae67,
ac74,
b619,
b52c,
b0a6,
b4dd,
b45c,
b490,
2f9e,
3083,
b76a,
2970,
a83b,
2da5,
367d,
b3cd,
2db2,
b17b,
a187,
2335,
b3c1,
2f1e,
2c82,
30c9,
b9ff,
aeb7,
3476,
ad5c,
31b1,
b1b5,
30f7,
b1e9,
af65,
343a,
3008,
aafb,
b53d,
b68f,
307c,
b1d9,
2bfd,
b8f1,
b1e2,
b525,
3780,
b258,
b217,
b9cc,
33d1,
3657,
a9ae,
3514,
b738,
3001,
33cf,
36f7,
b8c7,
36db,
b0af,
b571,
b6a7,
9d12,
b607,
b600,
9eed,
b2a5,
3019,
3366,
3170,
b017,
303d,
b43c,
a960,
3593,
b2ba,
b22c,
2912,
b6ba,
2dc9,
2f45,
adc1,
b2ab,
b2f3,
af54,
b1de,
b0c4,
b230,
b798,
2a81,
3182,
b14d,
b008,
3031,
32cb,
346a,
2871,
ac99,
ac67,
21df,
226a,
b3dc,
3493,
289c,
afc7,
b510,
b41f,
3444,
3448,
2ef8,
b3db,
3201,
ac73,
b4e5,
b180,
9e53,
9bcc,
b33a,
b9e5,
30ff,
9f6f,
b282,
b7a1,
b17d,
b663,
3442,
b494,
ad48,
b966,
34dc,
2df3,
19d2,
2eb4,
b871,
2c87,
ab61,
307d,
bae1,
3409,
b84e,
26da,
b839,
afd4,
afda,
b96a,
31c9,
1f10,
34d1,
32e5,
3206,
af10,
34fb,
ae6a,
28a6,
35b6,
a63e,
2cb4,
258d,
303d,
aa8b,
35b7,
acda,
acd9,
ae1b,
2efe,
2852,
2c30,
2389,
b475,
ac29,
31a1,
a7ad,
b065,
32ff,
31cc,
3186,
2ebf,
3491,
a458,
ac23,
2d3b,
a581,
2fba,
ac3c,
3050,
344f,
b45c,
3460,
326b,
ae87,
aea9,
a997,
2b5b,
ad86,
21fd,
adbc,
a995,
2e64,
b60b,
2494,
2ce0,
b2d7,
b0ce,
3051,
adf9,
3077,
adec,
3420,
b4dc,
347b,
2f75,
b3f0,
b091,
b4b3,
2392,
b518,
2716,
b526,
300e,
b8ae,
289b,
ad80,
ae4e,
314d,
ae14,
3099,
3497,
2fc9,
3395,
3139,
ab20,
34b0,
35eb,
af12,
35a6,
2d8f,
ad28,
2810,
36a7,
ad46,
30a7,
265d,
a96c,
28fc,
3563,
327e,
a574,
aaf9,
a500,
209e,
a5ef,
a994,
292d,
2ebe,
323b,
32d8,
2d06,
3083,
2e7e,
ad37,
ac55,
a987,
b03a,
3019,
ad72,
3133,
aede,
3567,
344b,
b401,
b208,
2555,
2e82,
2c1c,
373b,
b419,
2186,
a4ce,
b595,
30d5,
aeb9,
b583,
a988,
33e0,
2db3,
b343,
2777,
3158,
b1f8,
2b8a,
297d,
b1ae,
ab50,
18ee,
a8fd,
b2ad,
2eb9,
b025,
2b63,
b39c,
b10f,
307c,
2b05,
2d3a,
a788,
3104,
a6d4,
b24f,
3334,
26e7,
a877,
30a6,
3a24,
1e51,
348f,
2f24,
3177,
b225,
34a0,
9e78,
28ad,
21ae,
b4a7,
3275,
327b,
25c2,
2a71,
af57,
acd0,
b53f,
ab0d,
2c1d,
b01c,
32c6,
3583,
2a20,
3039,
29d3,
34f8,
ae93,
aa90,
ab15,
b58c,
295d,
b489,
a41c,
28eb,
34e6,
35e6,
b561,
afa1,
2e60,
319e,
2ce9,
3783,
2c54,
aeb6,
b0d3,
b47a,
32f2,
2d9b,
b805,
ac1a,
311d,
a89f,
b85e,
b086,
a35e,
2859,
9dda,
339d,
3452,
2bc4,
a746,
3088,
a827,
3478,
2327,
2141,
b2dc,
b4f3,
aa51,
8986,
a0a4,
b11d,
32a9,
2b38,
2e9e,
2d50,
acd5,
2d74,
348b,
37e7,
1784,
3580,
b1b0,
2f69,
288f,
3212,
2b69,
2ed5,
2e64,
b509,
33e5,
2eed,
a477,
acb8,
afb7,
b527,
b603,
adf3,
3250,
ae50,
2f49,
3822,
b503,
3287,
1f18,
3227,
a933,
28c3,
abdf,
b3a7,
2bb5,
a44d,
2ef6,
2be1,
2d81,
3675,
b1db,
b1e1,
3172,
26b1,
2c3b,
335d,
abb0,
b06b,
b341,
b11e,
2a4c,
3026,
b8a7,
aed6,
9f20,
3011,
b855,
2b28,
af1c,
3434,
34a7,
359e,
377a,
b026,
b19f,
2dde,
aa7d,
2a0e,
a4ad,
a911,
b2eb,
b844,
34ba,
3147,
2ef9,
b2ae,
1bbf,
1196,
a9a3,
a32f,
b335,
b4f5,
289b,
27d0,
2b80,
ac51,
b377,
b056,
308a,
30bf,
279d,
ae9d,
26b7,
b1f4,
23d3,
20d5,
b47e,
ad0f,
a174,
b25e,
b66c,
b5b7,
31c5,
aceb,
2c98,
31ac,
b581,
3079,
ab7d,
2fd5,
ad97,
2d69,
2b0c,
b557,
2bec,
2e11,
1d5a,
33fe,
2f08,
34a7,
306c,
afc9,
2ed5,
b21a,
2db7,
31ae,
b028,
b1e2,
a485,
a946,
b01f,
301c,
ae4b,
ad89,
b673,
327d,
b95b,
3109,
a25f,
3240,
340d,
31db,
33fa,
b456,
2adf,
a60a,
3035,
b22c,
3462,
2a64,
a97b,
257a,
34dd,
3159,
345e,
b208,
3413,
30a4,
b2b8,
b1bb,
b552,
b813,
31e5,
b669,
adf6,
b13b,
b568,
30e1,
3445,
ae4a,
abe6,
2d5f,
2c84,
af1f,
b091,
1fa4,
a436,
b0f9,
319a,
b142,
b97e,
b3b9,
385a,
b324,
3222,
307b,
b515,
3345,
ac89,
b0ce,
2c89,
ad27,
348d,
ad59,
33a1,
33c6,
321b,
b482,
37f9,
365d,
b972,
b41c,
b3bd,
35db,
351c,
a6f4,
341a,
32e9,
1d49,
b1a5,
aae3,
343c,
b508,
30aa,
b0bb,
328e,
b01c,
8823,
ad7d,
b203,
34e6,
a5e2,
36a7,
b32f,
312d,
b491,
b0ce,
b099,
24dc,
3262,
b46b,
2c21,
3197,
30e1,
37b5,
b425,
3506,
a7b7,
30f4,
b5d8,
b8cb,
b17f,
378b,
b470,
2175,
334b,
328e,
361c,
a54b,
3710,
294b,
3053,
347e,
21a3,
b8fb,
3514,
2d55,
b4e6,
37bf,
34b4,
af8e,
2f49,
392d,
3073,
3821,
366e,
b118,
32bf,
27d9,
16a5,
ade6,
2afc,
2cfa,
b69d,
b12d,
378d,
3742,
392a,
b358,
b550,
3418,
3825,
b659,
b2a6,
35e4,
b077,
2927,
a9f5,
aacf,
3422,
314d,
3005,
3400,
b4d0,
b392,
2b75,
3684,
ae44,
ac9e,
b652,
b6f3,
b650,
a818,
af2e,
3a45,
a1ad,
3abf,
b5fb,
b51d,
b724,
3862,
32eb,
adfd,
2e72,
aa17,
38f6,
b1ea,
3403,
b1c2,
b63e,
344d,
3400,
acc2,
b0ae,
2be7,
2cf9,
31cd,
b364,
2c61,
b83e,
ada7,
b41d,
3847,
32b7,
30f6,
2767,
310f,
b440,
376c,
34bf,
9514,
309e,
b5b4,
a96d,
30b3,
b2d2,
3124,
b20e,
2b24,
b2e2,
ac09,
26ad,
37d4,
b38d,
3446,
250f,
b5ff,
3528,
30e8,
b52c,
2a6c,
acb8,
b58a,
b70b,
2e97,
3307,
2b8d,
a9b1,
b155,
2a44,
a706,
b0ed,
ac8d,
b89a,
b735,
b41a,
a49c,
33e0,
b51f,
b7f6,
b4ec,
2b5f,
b54d,
315a,
30c6,
b074,
37e2,
280c,
b4ad,
3104,
31df,
ac99,
33b1,
2fda,
b3af,
328e,
b806,
aefb,
a5e2,
b3fb,
2f8f,
25f6,
345c,
b1b6,
ad8e,
2982,
b20c,
ba1a,
a887,
b88c,
25c3,
ab6c,
367e,
2aa2,
b005,
9fba,
b0fc,
b998,
3581,
b29f,
2d3c,
2a1a,
acb6,
af93,
b143,
aec3,
34b7,
b19b,
3053,
b00f,
abc9,
9ad7,
297f,
aafe,
2d65,
a445,
b574,
3142,
2d75,
b402,
3033,
2c48,
ac11,
b86f,
2dfd,
b10e,
3520,
b224,
b2ca,
b118,
2de2,
2f4c,
33be,
b7bb,
b878,
b410,
2eaa,
34d9,
b11b,
bc4b,
b02a,
ac5c,
b8cc,
af88,
28fb,
aba8,
337e,
b489,
bb5a,
abb5,
2a9d,
2dc0,
acd9,
2c33,
adfa,
2d6a,
b45a,
ae50,
af6c,
ac56,
2da7,
b016,
29fa,
b198,
283a,
2492,
aada,
b395,
30c1,
af7b,
adac,
a1e7,
33ae,
2d94,
a4df,
2def,
ad74,
b2a9,
3588,
b2d5,
9431,
b175,
3384,
aef6,
ad7d,
aeaf,
a9dc,
b1fd,
2097,
b45c,
a807,
a4d5,
325c,
2756,
2e0f,
b02d,
2261,
2f33,
2cc8,
adaf,
367d,
30f9,
301d,
b4b5,
285a,
b84a,
2fa4,
22b4,
adbc,
b888,
32dc,
315b,
3182,
a9dc,
b4b8,
add9,
3064,
add5,
2869,
b2db,
a269,
ae87,
b72d,
b135,
9e3d,
ac65,
2bc9,
b2a1,
b9c2,
b147,
abed,
3200,
b4f8,
25bb,
3362,
3390,
27e3,
3524,
aaa9,
31ff,
313d,
9d1a,
2cd6,
b47e,
2638,
2e99,
a806,
2785,
30fa,
33f1,
2a47,
2a24,
3407,
2689,
adf9,
3294,
304c,
2dcf,
359b,
2c22,
325c,
b169,
3549,
aecc,
ac22,
ae7a,
af17,
a061,
2cf1,
b57c,
ace8,
2b0f,
3485,
a32c,
2b73,
2c76,
3312,
b10f,
3044,
2761,
2c9d,
3046,
1cbc,
3401,
2194,
b3c5,
2808,
3356,
2f05,
b932,
34ec,
2f6d,
2f27,
30c9,
2f68,
3056,
375c,
b059,
33c9,
3121,
9f0a,
ab2e,
b4cc,
b313,
2d2a,
255b,
a999,
a45b,
2adb,
b27d,
29ea,
b093,
2231,
ac21,
32a0,
3639,
2abb,
348d,
31d8,
341f,
300a,
3068,
2e90,
b39c,
ae23,
3409,
2ea0,
b30b,
a236,
3315,
2696,
b381,
3393,
21dd,
3016,
351c,
31a6,
358e,
35e8,
3246,
366f,
b535,
a912,
32ad,
3247,
b35a,
aa12,
343a,
3520,
af9c,
a5ac,
a12c,
ac90,
b094,
a80b,
35b7,
3184,
b4d5,
24d4,
342b,
ae2b,
31a6,
3427,
3795,
ab10,
b09e,
af40,
2988,
3467,
b6e9,
367f,
2fc8,
a785,
3237,
3417,
3416,
3982,
1ce5,
3508,
26c9,
2e70,
24ab,
3015,
ace4,
adaf,
303c,
b411,
323f,
2cca,
b078,
a1f1,
b676,
20c6,
b50e,
3463,
2eca,
b4f0,
316a,
33d4,
30e1,
2d70,
345d,
2ed2,
38bb,
a774,
3494,
34c5,
b5cb,
31ec,
362b,
ae6a,
af6e,
a445,
abd6,
2a81,
345f,
33ee,
3278,
3495,
3405,
352e,
2da7,
b590,
3457,
36de,
312f,
2acb,
b4bf,
2d91,
ad7c,
aec3,
a7ea,
b086,
a253,
b1d8,
35ab,
3300,
289b,
28f7,
3098,
2ef5,
345d,
a130,
32d6,
281a,
3042,
b14f,
adf9,
2957,
2fa4,
35ce,
2dfa,
b448,
29a3,
32a4,
32d9,
9c90,
acc9,
31a3,
3198,
28be,
ae29,
3173,
b5d2,
3169,
1ed7,
b07c,
a5a0,
a9cf,
b2a6,
a872,
b014,
ac7b,
a487,
2e74,
2d41,
afcd,
34cc,
ae28,
b144,
b0e4,
29f2,
3033,
3a10,
2542,
340a,
2f84,
b5ac,
3014,
3246,
ae2f,
b01c,
1b92,
28f6,
343b,
34e3,
3499,
9aa7,
347b,
32b6,
b514,
b4f1,
b0c0,
2edb,
2e62,
360d,
b230,
b605,
2c4d,
2dab,
28b0,
acd7,
256c,
ab84,
2e85,
327b,
3150,
abf7,
ae70,
2bd7,
2809,
3057,
b21b,
ae21,
303d,
3413,
2e61,
aa01,
2d83,
2e70,
3007,
aabe,
b6b0,
b005,
ae5d,
34b3,
b929,
2c89,
9c02,
3382,
ab90,
2e5a,
34a1,
b014,
9e1d,
a852,
30c0,
abf8,
3334,
b39c,
2f85,
ae23,
3361,
1d3d,
314a,
33c6,
adba,
2a06,
b341,
b497,
abc6,
a866,
3137,
36be,
a5e0,
3082,
21a8,
b444,
3094,
9ee3,
243c,
b5ca,
1702,
28ee,
3133,
2c58,
2e70,
b186,
2e71,
2e8d,
b980,
b655,
1a4f,
a698,
2dc2,
332b,
b918,
b184,
25a6,
30b0,
a014,
272d,
af5d,
b4c7,
3239,
3231,
319e,
2ad4,
ae59,
3580,
2c2d,
2d2d,
a58a,
b14e,
2b88,
3246,
348d,
b496,
2ea5,
2e72,
2d5a,
3340,
9dea,
347f,
b348,
31a4,
bc5c,
3028,
3033,
304d,
acda,
2900,
371c,
b458,
2c42,
aac7,
9811,
b35b,
3693,
b1e3,
ace4,
334e,
323d,
3318,
312f,
b35f,
369f,
2046,
b527,
b709,
b40e,
b85a,
328e,
a9d9,
aca3,
ac6c,
af30,
324f,
2d4c,
2805,
9eda,
af6f,
305e,
3013,
30ce,
2bd5,
32de,
b504,
2ebb,
b464,
ba4f,
b507,
363d,
ace5,
309f,
3543,
ba31,
34d6,
3479,
ae59,
ad4e,
2841,
30d9,
2db5,
340b,
adea,
3797,
ad79,
306f,
3999,
b6ec,
b405,
3389,
35d6,
2cb6,
3186,
1d84,
b290,
3584,
b84b,
b942,
3562,
29ca,
392b,
2c8b,
addd,
b97d,
34e1,
32a1,
a4bd,
37b5,
341b,
35fb,
b464,
22d8,
3009,
a0d2,
ac4d,
3a4a,
a9a7,
b7d1,
34bc,
35a1,
2b56,
3702,
b7c7,
3a5e,
3429,
3523,
b874,
b910,
b7df,
3af1,
b3c8,
2c3e,
b3f7,
340e,
3767,
3144,
374e,
2896,
32c6,
3383,
b45d,
b821,
2adb,
3417,
b71b,
ac4b,
b4cd,
b17d,
b050,
39f4,
344f,
3823,
3852,
b9f4,
3782,
332f,
b197,
2cd4,
2d1e,
31f8,
a948,
28be,
a815,
3814,
3635,
b00a,
b563,
34f0,
342b,
b84a,
b4b7,
31bc,
b462,
2840,
1ec3,
b5b9,
3456,
a79d,
31a3,
3450,
b8cd,
b1e0,
b297,
329b,
b23d,
b3c0,
b8ba,
b841,
b800,
b442,
b022,
3824,
b29d,
37e0,
b4b0,
b92c,
b560,
362a,
3197,
ad26,
32ef,
af66,
35c1,
b4a9,
29d8,
b17d,
b65b,
30f3,
362e,
3227,
21d9,
aa40,
a925,
3306,
b61e,
b26f,
b070,
a97a,
b462,
39e4,
3226,
325b,
374b,
33ab,
b0f1,
363c,
34a3,
a5c9,
2999,
0e4f,
1a7c,
3530,
a808,
31f2,
b343,
2f8e,
30c4,
2a8f,
adb4,
369e,
b8d9,
33ef,
af7f,
b6f2,
33db,
9fcb,
b0eb,
2ade,
a9ef,
b8b1,
afc1,
3846,
b4f0,
31b0,
342b,
b50f,
29ed,
ac76,
b184,
267f,
ba9a,
b6db,
30ca,
a256,
2c61,
b14c,
ba80,
b567,
b46c,
b81b,
ad9c,
315d,
ab9f,
33ca,
b1bd,
b9c1,
b16c,
3252,
30a3,
32a4,
2bc3,
a5e9,
3587,
b4e1,
a8ec,
2367,
b1cb,
35a5,
354b,
34a8,
b293,
2cc3,
af0d,
a8b7,
b94c,
a7ce,
a306,
2111,
af10,
37ef,
af3c,
2395,
3845,
b0b5,
b730,
393d,
314b,
2f00,
25f6,
3156,
1ebe,
b337,
b465,
349f,
b181,
2e94,
2826,
2997,
2a37,
ae32,
b47f,
2894,
b4a8,
ad3b,
311e,
2d7f,
afea,
2cbc,
2ce3,
a4df,
aef1,
36a9,
b5f8,
35f6,
2b76,
aef3,
210b,
b128,
3276,
3480,
b4ca,
a17d,
381c,
a97a,
3312,
2854,
bda0,
2d92,
b3df,
b55b,
b493,
aab4,
2c89,
b0e1,
b1f7,
bd04,
b124,
3277,
305e,
3394,
248f,
3183,
383c,
af8a,
2d45,
b097,
2a3f,
3419,
2a89,
2ee9,
b011,
24ab,
b342,
a745,
3318,
3167,
35b4,
add0,
2a29,
32be,
2b9d,
b0ec,
35f6,
b08b,
b7a2,
38ce,
34fe,
3092,
b2d7,
3247,
a783,
b1ea,
aa63,
b4ec,
b4fd,
30e1,
ae07,
8a50,
aaa8,
3013,
2c80,
185f,
ac82,
2c60,
2994,
3173,
2d5e,
2da6,
31c6,
3452,
a83f,
3480,
b300,
349e,
a53d,
a5f9,
b566,
b657,
33ba,
3280,
3256,
34ac,
368d,
abf6,
b1c7,
33a1,
adcc,
a3c9,
b448,
1ff2,
b580,
ab8d,
a881,
b306,
b46d,
b5f1,
b071,
312b,
36ea,
2739,
aad3,
36e3,
31ce,
2441,
3349,
b06a,
348f,
3006,
2822,
b2de,
af99,
aaab,
b420,
a79d,
35c1,
2e25,
34b5,
a505,
302a,
32d1,
2efe,
2cff,
3241,
b1bb,
b4db,
35fa,
3404,
2c87,
b2ca,
3406,
aa62,
2e07,
affc,
b8e0,
a13b,
24d5,
b080,
22c6,
aa5e,
296a,
154c,
ad73,
2ea5,
2e41,
3148,
aaea,
af7a,
b6c8,
3434,
31a1,
af28,
390d,
b3c0,
1c6e,
33d2,
a377,
32b5,
ba55,
a857,
33e0,
25f8,
3201,
ad8d,
2f98,
b700,
af0f,
383f,
3096,
b4db,
960e,
b2d1,
3620,
ae62,
b0b6,
b5c0,
3899,
b0a2,
34a2,
2c50,
32fa,
30b0,
3422,
24a1,
abbe,
af0d,
a95e,
b2ad,
aa13,
2b43,
aff6,
ad4b,
28f5,
adc3,
2b90,
adc5,
ae22,
2c10,
ae0a,
b64e,
35f1,
3136,
329b,
32c0,
318d,
2d73,
3799,
35aa,
2f8b,
b6a9,
b2c9,
33f1,
39a6,
b12d,
2f3c,
2ba6,
ae32,
a9b8,
ad04,
296b,
2ef1,
9236,
ac94,
31a1,
ae9b,
b01c,
ae32,
ada8,
2cec,
21cc,
2e51,
b4b0,
303e,
b874,
b017,
31a2,
2cf8,
37c3,
a9a0,
2027,
3135,
b0a4,
b152,
3164,
233e,
b557,
b430,
2e5a,
2708,
b647,
26a5,
278e,
3686,
b53b,
ae18,
b290,
1d05,
b16a,
32ca,
b00f,
31d1,
3238,
b260,
32e7,
b030,
aee5,
b0f9,
b8fb,
b589,
af96,
b030,
2c73,
2802,
b041,
2e37,
ad6a,
b41f,
b3d6,
ab24,
b348,
20d1,
3891,
2e67,
aa10,
3487,
35d5,
3218,
36bc,
2c8b,
2e57,
b746,
3050,
a1a4,
b070,
3ad7,
b4e0,
b3b8,
3261,
ad48,
adff,
34a7,
2f6b,
b3c9,
b457,
b16a,
3111,
b129,
2488,
375e,
3243,
b755,
a8e2,
b53f,
3160,
2966,
2a5a,
2c8b,
3569,
3392,
1e2a,
adbc,
3536,
b00f,
3018,
2371,
a466,
9ebd,
b472,
b5cc,
2642,
b16e,
a9f4,
331d,
afb1,
3471,
a913,
b5ef,
b3ed,
2299,
3209,
afe0,
a5cd,
a5aa,
2cf8,
311c,
2cc8,
b0b4,
b5c8,
aad0,
2dfa,
b40b,
35f6,
ae70,
2efb,
a897,
b035,
2dac,
b3d7,
addc,
95f6,
3190,
3768,
3618,
3150,
36e9,
9c1b,
2966,
a820,
2fd4,
ae3a,
2de4,
2da6,
b944,
a01b,
34ea,
a643,
a32e,
2c75,
1e36,
ae7c,
3572,
b311,
2fb4,
b459,
ace0,
30b6,
a2ff,
2df3,
30f8,
3402,
b717,
32bc,
aa42,
3091,
ab1b,
3122,
3218,
34be,
2c92,
b072,
b50e,
ada9,
2e31,
25f4,
b4ea,
304f,
2b95,
b760,
b19f,
aa6c,
acc4,
a705,
303c,
3114,
32d9,
2f90,
b0a9,
abd5,
3334,
3435,
2a1e,
b234,
2c53,
aa4d,
a346,
306c,
2e14,
ad30,
3211,
3651,
b439,
3896,
ae90,
3445,
30fd,
a7f3,
292d,
0475,
a03b,
2abf,
2e2c,
30be,
31bf,
2edc,
332a,
b440,
212a,
3504,
2abc,
ad1a,
313d,
310e,
b571,
340b,
bcc3,
2e43,
1e03,
2f72,
a0a6,
ac47,
b1d3,
b454,
a71d,
b521,
b330,
30e7,
b49b,
346d,
2dbe,
3357,
2dca,
3089,
24d2,
b6ff,
b139,
30ad,
37e2,
34e9,
b405,
380a,
ad40,
36bc,
b0ef,
2fcb,
bcb6,
30ef,
22c3,
b5a6,
286e,
b3b0,
349e,
b514,
3714,
b0c6,
a914,
b5c8,
3741,
b224,
af5b,
3957,
2e4b,
3264,
3643,
b10f,
293c,
322d,
b072,
ae92,
b19f,
b443,
b55c,
3125,
a85b,
26cb,
3474,
3460,
ab8e,
3520,
2c27,
2d90,
30b2,
364d,
2f20,
3173,
371b,
b305,
0244,
31dc,
b29b,
b50b,
3392,
3162,
b4c9,
3799,
bd6f,
31fd,
35c5,
1d55,
2992,
aa7b,
33b8,
b535,
a92f,
b406,
3432,
2703,
a4ca,
3849,
3186,
b288,
37e2,
2dfd,
a595,
b57c,
b6d1,
2962,
3b55,
afbc,
b92f,
3a21,
b132,
3c20,
b626,
b4e3,
b863,
379c,
b264,
b6ba,
385f,
b350,
37ab,
b8f7,
38e8,
b493,
283d,
b8cb,
3b4b,
a9c2,
b837,
3b16,
364a,
3954,
3278,
a731,
38eb,
27de,
ab72,
b851,
b8f3,
baaf,
ab3d,
b672,
ad44,
b672,
39d2,
3894,
b314,
37d6,
a96c,
a682,
34cd,
35a9,
20f0,
a909,
3908,
b63d,
aea2,
b0bd,
3005,
b809,
3765,
37f6,
388a,
383c,
ba32,
2abf,
30cd,
b492,
ac9e,
2e3d,
3880,
b7aa,
b31c,
300a,
386b,
33b8,
b271,
b703,
285f,
34ba,
b021,
b466,
349c,
b7e5,
b1eb,
2fea,
a984,
36c6,
b5e8,
34e4,
34e5,
b97d,
b599,
afce,
32d6,
b06f,
b413,
b42f,
b292,
b6de,
b5ab,
b5e8,
359f,
b4f4,
35b8,
b635,
b327,
b7d5,
3568,
35a4,
2c07,
35b0,
b02c,
303b,
b481,
2176,
b4e5,
b4d0,
33d4,
375d,
35dc,
b23e,
acff,
2aa3,
35a8,
b6bf,
aa50,
b579,
2c1c,
b75b,
337f,
3185,
3418,
362d,
2c00,
ad82,
2de0,
3809,
2b44,
b70c,
9e17,
2d8f,
3625,
b5df,
2c32,
b59c,
2b16,
9c75,
242c,
28d0,
35b5,
b765,
33ac,
b500,
b15a,
2a13,
b90f,
a557,
b8c2,
318c,
b0d9,
32ae,
2de0,
b4b4,
3112,
30eb,
b576,
3445,
baca,
3091,
2f47,
b542,
2975,
b12a,
b350,
344e,
2598,
b839,
a6f3,
202d,
b288,
b3c8,
b56e,
31c7,
a69c,
ae78,
b7d1,
b092,
2560,
9d58,
3790,
b2f7,
2ee1,
b6f1,
b15c,
31b8,
3262,
33a9,
33e7,
3433,
377e,
b375,
265c,
b543,
2b6f,
b392,
2f81,
30d4,
2771,
b260,
b17f,
af14,
28fb,
303a,
a630,
b84f,
b23a,
326d,
3458,
b0e0,
2566,
3259,
30ce,
b3b4,
b2c2,
b38d,
b866,
ab43,
ad68,
2270,
acab,
b80d,
20ab,
b205,
aff7,
2f81,
b68f,
3274,
2823,
327e,
3417,
3339,
aef0,
ab79,
2ede,
19c7,
b271,
2ffd,
babd,
3388,
291d,
2d11,
34d6,
22ad,
ae6c,
36c7,
34ea,
bc92,
34b4,
338a,
314d,
a9f1,
b1a2,
34c9,
b47b,
31ef,
bc63,
af52,
b082,
3146,
3910,
b1a6,
3224,
b8e5,
afa4,
3468,
2fbf,
36d9,
a467,
b20d,
ae09,
af1d,
a2d0,
b626,
ae64,
3316,
3589,
360d,
aa76,
2ac2,
b76e,
2657,
31d9,
afdf,
2c29,
b9db,
b3c7,
3156,
32a2,
b39b,
301e,
300b,
31dc,
2a8a,
b445,
b4de,
b898,
29d2,
2709,
ada9,
2fdb,
28d2,
2e15,
316b,
30b7,
34a3,
9d99,
30cd,
322f,
3268,
348c,
ac3c,
af9d,
34f5,
2ed6,
b5f5,
3163,
3529,
b8d3,
350e,
346c,
3712,
a566,
b6bc,
b1fc,
36b9,
343c,
abe5,
29fa,
3483,
30c6,
a786,
a9f4,
35ad,
2c65,
2927,
b2b3,
adfe,
ab34,
387a,
3467,
afe7,
3543,
b8ed,
2f07,
35ca,
a9b2,
30e1,
b028,
b4b4,
2e9b,
9eb6,
2696,
b3e7,
af43,
205b,
37a4,
2f98,
a653,
317d,
ad04,
23b6,
34b8,
b4c2,
2d32,
b3b1,
b571,
b0b5,
b2f2,
a867,
346b,
afee,
32af,
27f4,
3437,
a8f6,
b9f5,
b0c8,
2d91,
ac67,
3273,
3549,
33c3,
30c2,
2754,
32f2,
3610,
350d,
ad44,
2008,
3413,
2db5,
b220,
2558,
b41b,
ac2e,
2ee0,
3792,
b760,
34fc,
ac1a,
3119,
b269,
baea,
b8c2,
354f,
b2ba,
35ab,
309d,
3256,
3484,
3375,
3026,
b44f,
2ecf,
2492,
3845,
2ca9,
b4b8,
3819,
b389,
3410,
adf0,
b4ee,
3315,
afc4,
2e2e,
b6f4,
b8a9,
b537,
35b8,
b5f4,
ae08,
b32f,
2e3a,
ab40,
b487,
2ce3,
a224,
ae6a,
2b38,
317f,
a5ed,
22a0,
35d2,
ac70,
b900,
b281,
b00d,
3545,
3446,
30bd,
aecb,
3797,
38f1,
34ff,
b5ce,
ac4a,
adec,
2ab2,
32d4,
2483,
2d90,
b18b,
3250,
b29b,
386d,
b3d5,
3434,
b569,
3274,
2fe3,
2730,
b554,
2b8e,
31b8,
34bd,
b1b2,
acf7,
1873,
3094,
b214,
22fc,
b108,
aee7,
2a53,
b563,
33fd,
354a,
3333,
33d9,
27ab,
2c64,
b45a,
ac42,
2537,
3265,
312b,
2cc4,
b51d,
264b,
3655,
2e8b,
33fe,
b410,
b2e2,
abbe,
2562,
b5ee,
b444,
3014,
a875,
1fdf,
ad96,
3341,
2d68,
2c69,
a3e8,
ae12,
b447,
32e7,
b278,
b98c,
adf4,
b478,
b60b,
b801,
3272,
3060,
3020,
b554,
3170,
b7f3,
2e8d,
373a,
b042,
b13d,
31e6,
9fa3,
aa5e,
b11e,
35a7,
a30d,
b3a9,
b1be,
3341,
3162,
b054,
29f1,
2880,
a743,
2e0c,
af4c,
2df8,
2e5e,
2e52,
af5c,
ad80,
2b26,
b15f,
3388,
ac0f,
2c79,
a5bf,
366c,
aed9,
253e,
b098,
26c1,
3317,
b1d2,
9de5,
b129,
24cb,
30a7,
31f8,
b4fa,
b06d,
307b,
ae26,
b4c0,
b1da,
2ba9,
b1d6,
afcb,
2bb2,
2f26,
31f2,
a0ce,
2d4d,
2f99,
309d,
adbe,
b070,
28f0,
b4b1,
2372,
ac9f,
aeda,
b3fb,
3255,
b4f5,
b070,
1dab,
2c64,
b115,
acfe,
31a1,
2f7a,
ad15,
ad59,
2f95,
b4ad,
b234,
b614,
ade1,
b0dd,
a716,
aef1,
ae3a,
a638,
3639,
2e8c,
1125,
b62e,
29fd,
b0ae,
2a4f,
a13a,
313c,
b049,
3008,
adef,
a2f5,
ad91,
3282,
b29e,
307a,
b202,
b585,
3035,
b141,
373b,
2d52,
2c6e,
30dd,
304c,
aa5e,
2dd1,
a88d,
b684,
308b,
b203,
33a5,
b0ba,
3228,
b6ea,
a8c0,
a556,
aa71,
3508,
b4e1,
3217,
b199,
af3c,
3267,
31bb,
3631,
2d31,
374b,
ade7,
3649,
ae20,
a907,
af90,
2978,
2eb4,
2b1e,
af17,
b52b,
aa82,
aa02,
b0a2,
329c,
8d74,
b24a,
b01a,
35a4,
2d76,
a8e5,
2fee,
2112,
b7ee,
b271,
bb7b,
2c0f,
ae71,
35c3,
2d5e,
2b29,
b4cf,
b009,
2de2,
b122,
b6f5,
2626,
b926,
3751,
33be,
a603,
ab63,
33de,
ada4,
b688,
2d9a,
a808,
a90d,
34e1,
b5b1,
ac53,
b286,
3028,
3924,
b750,
bbac,
ab54,
38e6,
b921,
2f4d,
b2e7,
b75d,
342f,
b468,
368b,
b83e,
34e4,
b6c1,
2eee,
b6d5,
ae14,
3487,
b40b,
32a8,
a5ed,
3247,
356d,
34a1,
390a,
3729,
3334,
b899,
30cf,
20d8,
b88d,
b645,
3603,
ab36,
36c8,
2831,
2f7b,
ae1a,
270b,
2b6a,
b1ee,
b3ff,
b4a0,
b0a9,
30d8,
b1e9,
ac55,
b607,
b50a,
b8e5,
b31c,
b8e4,
3356,
b81d,
3551,
a73f,
acdc,
b5be,
b51d,
24c9,
b7d8,
b7e8,
b2ba,
b654,
32b7,
369c,
b15c,
b680,
2ee8,
3417,
b9fb,
ad49,
35ca,
30b7,
ad3a,
2fb5,
3621,
b833,
2fa5,
b447,
aebe,
b85e,
b5f4,
b302,
bc09,
2b52,
b63f,
ae7e,
1eba,
36ba,
b60c,
b5a3,
b32e,
b981,
33f4,
9c05,
367d,
31d8,
3909,
2a0b,
3988,
3836,
b71d,
a55e,
b2a5,
a99d,
9812,
b883,
b4e7,
2b16,
b002,
2cd3,
3831,
b881,
34bd,
a9a2,
32a8,
35f4,
330d,
b04a,
312f,
30f1,
b51e,
2611,
18e5,
b2cd,
2fcf,
af5e,
24a1,
b1f1,
2f01,
3535,
3749,
acd1,
3204,
280f,
ac66,
20b3,
bbae,
b622,
aefb,
350b,
2e53,
21f3,
b57e,
30af,
a4e6,
b7ec,
25d7,
31b0,
ad03,
abbf,
343e,
b0ad,
b3dd,
2866,
aede,
34a9,
b828,
b8cb,
28d1,
b291,
a0e7,
b560,
b236,
b580,
a6dd,
b2a4,
2928,
2faa,
b447,
368c,
b1cc,
267c,
3376,
3486,
3422,
3943,
3477,
b154,
30e5,
ac73,
b3cf,
2550,
b5f1,
b0a2,
339e,
3544,
b561,
2d47,
3514,
2fbb,
3043,
ac28,
b91f,
2d78,
2529,
3140,
b2bb,
b3e5,
3670,
a184,
b32b,
af14,
acc2,
32b2,
332e,
a56c,
31df,
3291,
b5cc,
9cda,
30c6,
34b3,
b080,
2d10,
a875,
b109,
b603,
2c93,
b563,
b38f,
3274,
ba67,
30f5,
ac93,
a8c8,
a540,
34ef,
b881,
33ee,
2fbb,
acf4,
abf5,
2f83,
3416,
3303,
ace0,
b062,
b42e,
bb18,
b439,
2811,
b01b,
b5ba,
b538,
3275,
b16b,
2fd5,
b246,
2e15,
3337,
3344,
2320,
aa3f,
232f,
b47a,
b2cb,
b244,
b55a,
b9ef,
af33,
2c82,
2f04,
34c1,
31b4,
3369,
b4d9,
2a9b,
2d55,
a325,
2c4d,
b7b0,
a4f0,
b381,
22b9,
ab14,
b9d9,
2c98,
b1a4,
b4e9,
3573,
b500,
b829,
a81e,
b1f2,
33f5,
ad9d,
2742,
affa,
ad13,
b620,
b3eb,
b6a6,
b03a,
9668,
ae22,
2d58,
b7e5,
a315,
b561,
b035,
348f,
b9ce,
349e,
aece,
2c81,
3293,
2c9f,
b76d,
3593,
b820,
b3ff,
b591,
3447,
31ae,
ac55,
b17f,
ac7a,
b04a,
b91b,
b2d7,
3506,
33b6,
b66b,
addc,
3518,
ada7,
3014,
ad10,
318e,
334d,
3678,
b5d4,
2e5e,
2c42,
b077,
b417,
b08d,
adf7,
b542,
3100,
2f8d,
2b9c,
3409,
2e69,
ad8e,
b90f,
a99d,
a44f,
3199,
af34,
b412,
33a3,
b326,
ae91,
3202,
b8b4,
2c7e,
2830,
b398,
31b3,
a8b8,
b6c5,
b1a6,
b363,
2caf,
b1a3,
aec9,
b022,
ada2,
27cc,
ad97,
b5ed,
2c12,
ac16,
8dc7,
306e,
b42b,
2f3c,
aece,
b023,
2fba,
b8bd,
3573,
30be,
a84e,
316c,
2f25,
b2c1,
3667,
b8f7,
b59e,
a789,
3063,
3240,
31fc,
b22d,
329a,
28f2,
b7e9,
263a,
3636,
3548,
2ef1,
ade6,
31bf,
abd2,
aaef,
af6a,
32bc,
302b,
1e1a,
b322,
23d5,
adcb,
2bce,
b5af,
b3a5,
2615,
2de8,
3290,
33fb,
acc1,
2c57,
2932,
b144,
b7ea,
aece,
2a58,
2ec0,
b459,
b004,
344e,
a9e3,
9818,
3430,
b44b,
2d00,
a6c7,
ad1e,
31b4,
3601,
b28b,
b49a,
b103,
31ce,
b316,
aef4,
2927,
ae86,
2e03,
3050,
b072,
3043,
248e,
abd3,
305f,
2f7a,
33b9,
37fc,
234f,
b90f,
afa5,
359b,
3341,
b465,
b429,
3686,
2db9,
3467,
afea,
35a1,
3444,
b5d2,
34ea,
2bbd,
b2f4,
1df7,
3097,
30fc,
ad21,
36a0,
20dc,
325b,
32cb,
3320,
3522,
3529,
2cd2,
2dbd,
b04f,
355e,
30d6,
323f,
b0fb,
a449,
b213,
24a9,
304a,
358f,
3359,
afda,
3826,
b045,
b0ba,
326a,
ada7,
2640,
a874,
2019,
a50f,
328c,
2d64,
3443,
ad31,
3410,
31ff,
afd2,
b89f,
3418,
2f02,
2f0a,
209f,
b478,
2d7d,
36ef,
31e2,
3183,
b466,
33e1,
a101,
35d9,
35b9,
3649,
25f0,
ae7c,
b2af,
310f,
b2d3,
389f,
33c3,
aeec,
2aae,
27dd,
325e,
1c0d,
b454,
3292,
34fa,
3302,
358b,
32df,
35c3,
b47c,
ac16,
b441,
340f,
b438,
32ec,
308a,
a87d,
366d,
2e77,
2b61,
2db3,
350e,
b3f7,
33c7,
a069,
3420,
2a42,
3164,
31bd,
3831,
335f,
b226,
32b6,
3093,
35bf,
3505,
a4df,
9e69,
30c1,
b0e5,
ac25,
3009,
afba,
aeb2,
a031,
2eac,
3166,
3158,
2dfa,
b270,
2914,
3311,
33fd,
b83d,
b839,
3333,
b55f,
b457,
ad28,
b3f0,
a67f,
3281,
3169,
3258,
b011,
b35b,
a741,
2ac1,
3447,
a5e3,
aeaf,
aa56,
b66c,
375a,
2eaf,
14ff,
b481,
2166,
b016,
b1cf,
b23c,
347a,
26f2,
ae05,
ae4e,
3009,
30ce,
b0fc,
3085,
b089,
2f8f,
2e8b,
364c,
aba2,
b48e,
b492,
2e60,
b231,
2fcf,
8408,
b5d0,
2b59,
b39c,
a99d,
2809,
33aa,
35c3,
2e7c,
a4b8,
b32e,
319e,
ab42,
b5ee,
b375,
3330,
add5,
ada9,
34b6,
2a35,
b043,
2759,
3199,
302f,
ac36,
28af,
af85,
2c4a,
b512,
2ef8,
b389,
ac0a,
a75b,
3490,
b0fa,
b60c,
9e71,
2f50,
a7e6,
b1b4,
2a1e,
a551,
3633,
2c1b,
2801,
b319,
b173,
b7c4,
1be2,
ae73,
b58d,
281f,
adc0,
3000,
3113,
34d6,
b036,
b449,
2bd9,
27b3,
b48b,
b0d0,
3251,
310a,
b45c,
adb4,
af4b,
b278,
acf0,
b7fa,
b314,
296e,
adab,
3205,
b410,
b2d6,
b5af,
b765,
b3dc,
ae02,
3542,
ab99,
ac6a,
ad72,
3100,
2c04,
3066,
3441,
2630,
b141,
ace4,
35d6,
b33a,
b455,
2c0e,
b683,
353c,
98cf,
3152,
acac,
30f5,
3285,
3466,
3700,
b418,
9bee,
b2c4,
b25c,
aff3,
b288,
b4cb,
a81f,
b1df,
b23b,
a8ca,
b380,
af28,
2b09,
2e9d,
29e8,
2d6f,
ad1f,
351b,
b53d,
b0b0,
af76,
acb5,
b13f,
2875,
b208,
acc2,
2a7f,
ac39,
2e35,
b657,
3320,
ae35,
b412,
339d,
33b5,
b16e,
b38e,
2f03,
3381,
b411,
b577,
b121,
aca6,
b37b,
b423,
271c,
b0ed,
2ce9,
302a,
2b06,
b15c,
b9e2,
b97d,
2c54,
2937,
b3f9,
b170,
acd2,
b8fb,
34a9,
29e2,
27da,
2a01,
2f7d,
b94c,
a775,
2d50,
ac86,
b995,
a564,
b20b,
299e,
33a8,
31dc,
2272,
32d8,
3506,
3120,
37ae,
af3d,
2866,
b768,
b536,
a8d8,
af54,
b09b,
a8fa,
2ffa,
2961,
337e,
3021,
b2a2,
31df,
2e5d,
add4,
28c9,
2c30,
35a0,
b886,
b329,
3410,
b035,
2aff,
30e3,
b946,
2e71,
a1f6,
ac86,
33da,
b54c,
2f50,
2b91,
b308,
b584,
342e,
2c72,
b149,
b479,
b4f1,
1d6b,
3405,
18a3,
3987,
305c,
b381,
b0da,
3827,
b4b9,
2dea,
a105,
b64d,
288b,
2d04,
b6be,
1c10,
bba3,
b43c,
b42c,
b930,
3604,
31dc,
b1f7,
a51f,
ac46,
ba9a,
32f7,
b07f,
b4cc,
b4ba,
2e03,
b43a,
3472,
39b1,
b2a6,
2e54,
b26b,
3520,
3603,
34b9,
b0bc,
2d51,
3250,
b3d2,
333a,
b6ea,
b0ba,
a927,
33ca,
35a9,
abe3,
b0cf,
30bd,
3180,
346c,
3058,
b5c5,
b5d7,
3795,
aba4,
b517,
b2fe,
b589,
35b7,
38d9,
2a8c,
3574,
a4ff,
ad3b,
ae06,
b8fe,
b476,
b722,
b38f,
ac56,
39b7,
b652,
9787,
ae0c,
28fe,
32e7,
36ee,
340a,
aef4,
350a,
aefc,
b89c,
34b6,
26b8,
2d6d,
b5e1,
b817,
34c2,
31ca,
aa3c,
b61b,
b45c,
2c6f,
37d3,
a816,
2fdd,
3184,
ae7d,
3946,
2865,
b6ec,
3504,
3726,
b2ee,
2557,
3176,
b589,
34b9,
b045,
b52e,
3307,
b40d,
b26b,
3503,
3a2c,
b707,
2bce,
30fd,
3104,
b3dd,
b40f,
b76c,
2c1f,
2d2d,
346c,
b214,
b97d,
3524,
3069,
b345,
b102,
b060,
33f2,
327f,
b0cf,
348e,
3513,
2c9b,
b492,
a9b2,
3514,
af06,
2834,
ad6f,
b2c4,
b462,
a6ca,
35fd,
b3de,
3049,
34ab,
2945,
b245,
a871,
2457,
338f,
b441,
3150,
b775,
31e7,
a826,
a652,
346a,
356c,
b617,
318f,
ba61,
b342,
b42e,
b741,
b417,
a785,
b2f9,
31eb,
31ae,
31aa,
34fa,
b2e4,
3683,
3247,
2810,
32d9,
b0d2,
b395,
ba73,
3087,
b810,
25d4,
a8d3,
9b92,
328e,
a817,
2e7e,
2d5a,
35ea,
b652,
ac64,
2e35,
3045,
b909,
b6cc,
b61f,
aa82,
284a,
a50e,
3214,
b437,
2fcc,
3882,
2da6,
b25e,
b016,
af39,
3764,
adaa,
224d,
b614,
32e7,
b625,
2406,
35c8,
b24a,
2c91,
2c9e,
3438,
b7ad,
b35a,
b439,
2e61,
2a12,
318b,
2cba,
b75b,
ac8a,
2d13,
8f77,
a567,
3140,
bcc5,
2bbd,
ae26,
301b,
2f54,
3400,
b944,
3258,
b22a,
aeb9,
b86b,
b870,
2c09,
2da5,
b34c,
2826,
27cd,
aedf,
31e5,
adef,
28fe,
a261,
2a74,
31c7,
af92,
b44a,
b806,
3411,
ad20,
34b1,
332e,
2bca,
ac78,
11ba,
207f,
b534,
b2f1,
2002,
a24b,
1f6e,
1cc6,
b087,
b2db,
ae1d,
2b2a,
3006,
3209,
a88b,
b322,
27fa,
3030,
3130,
b21d,
2c88,
b359,
34d5,
b604,
ac11,
b69f,
a997,
af89,
33d6,
36c0,
abee,
2d54,
ab11,
33bb,
b80a,
a828,
b9eb,
ac4a,
b606,
b8e3,
3132,
b131,
ac17,
a147,
3338,
2a9e,
a248,
b1a1,
aab7,
b760,
24ef,
aeef,
a3b3,
b692,
2829,
3724,
31d8,
2eb7,
b90c,
3426,
3200,
a431,
b14b,
2805,
9c7d,
b0dd,
3117,
b5d7,
a9ea,
3087,
aed0,
b686,
b394,
b35a,
b1bc,
2d3a,
305c,
3066,
3136,
306f,
2b6c,
2a66,
a80c,
bb17,
34b4,
ab51,
b4bd,
b004,
23e7,
1d3d,
35ec,
9e14,
9ffb,
ab85,
a637,
a987,
3115,
2f87,
a636,
21fd,
3382,
1f5e,
2652,
b416,
a9c6,
b831,
a113,
2c4d,
35dc,
2f5d,
362e,
adc2,
a91e,
2e2b,
b4c0,
b20a,
b60d,
a422,
b835,
b934,
2e86,
390f,
b2d2,
abd4,
2d85,
34de,
2caf,
398c,
323a,
96f4,
b58d,
254f,
acef,
33d7,
b570,
3310,
3746,
3401,
afcd,
a0e1,
305e,
3131,
acba,
af32,
33d5,
17ca,
2ccd,
b452,
3015,
2de7,
293b,
b057,
ad62,
351e,
309e,
acd2,
3378,
3223,
ab52,
328e,
2d7c,
3192,
34f0,
b93d,
b150,
29f2,
ae5e,
b03f,
3780,
ad06,
a953,
ae77,
2c54,
a694,
b215,
b663,
a55f,
a821,
298b,
abc4,
262f,
adbd,
ac36,
3491,
2a7d,
b959,
b5f2,
b0b0,
329d,
2504,
32f4,
a496,
2831,
aec3,
afd7,
b105,
b5df,
a876,
33e5,
af53,
b2b9,
b620,
315c,
3074,
b0df,
3185,
34ca,
3411,
b2b8,
371b,
a428,
2dde,
ade7,
33ff,
3159,
b447,
25de,
a96f,
3369,
2e5f,
ac9f,
b2e3,
2dec,
b517,
316c,
3056,
3164,
35b4,
2d58,
ab27,
341e,
3453,
af89,
337a,
2f09,
a3ec,
a5a6,
1594,
a503,
b0c2,
b494,
a708,
2c7a,
acb1,
b554,
1f8d,
af38,
2a98,
320f,
325f,
b5dc,
2667,
3273,
24e6,
b195,
b52d,
b207,
b01d,
a743,
b1dc,
b1b5,
b20a,
3813,
2ed3,
b035,
af35,
b61e,
b300,
b191,
2935,
b582,
ae4a,
a8e8,
29c3,
314e,
33ee,
b528,
b701,
2ecd,
326e,
9fb9,
b7e2,
3039,
3378,
2cec,
b437,
3234,
a94e,
2c55,
2c65,
248e,
2a48,
2a99,
2c40,
3178,
b3d6,
b210,
b0f3,
b324,
2bed,
b30d,
b23c,
2c3e,
2dbb,
340a,
aa75,
305c,
35f5,
2ce5,
ad09,
ac3b,
a427,
b2fa,
b56c,
b191,
b16f,
b2ed,
b15f,
2f89,
28dd,
348b,
3411,
3207,
3218,
b4cc,
1441,
25a6,
323b,
b51d,
2c49,
b037,
aa97,
32c2,
b297,
31ab,
b13d,
afdb,
2a6a,
2c1f,
2bf0,
2b77,
9e2b,
38a4,
b0d5,
ac8e,
b0ac,
3309,
b2a2,
2793,
30cb,
b5f6,
ae15,
2d35,
286f,
b8ba,
30f4,
2a42,
b32a,
1873,
31a3,
b291,
a6c2,
2cc1,
28ce,
adad,
2c84,
ae1c,
b650,
3016,
b91d,
b306,
b178,
29b1,
b124,
b4c2,
b4fb,
b14e,
b5c8,
b075,
adb2,
331a,
2ed7,
a583,
ac62,
3397,
b0ee,
ae07,
3149,
2dd4,
af43,
a487,
2f45,
b42a,
b318,
ac34,
b500,
3195,
2c2e,
3160,
1787,
335c,
32d3,
309f,
3313,
b8de,
aedc,
254e,
8e33,
b360,
b265,
abf0,
aab9,
2e2c,
accc,
a8c1,
2a85,
ad5f,
2b66,
339f,
2d24,
2917,
333c,
2e63,
b2fe,
0699,
a4f1,
b1e1,
3202,
276c,
a321,
aff9,
ad15,
27f3,
3037,
b987,
a2bc,
331a,
ae44,
b0ea,
34c5,
323a,
b181,
a56a,
b36c,
29b4,
b03d,
2fa1,
b27b,
352b,
b945,
adb8,
b1f3,
a17b,
b2be,
b064,
b342,
a8e2,
ac08,
1fba,
af08,
b103,
aa0c,
b301,
b871,
2d56,
2ef8,
ae3b,
abe6,
2be1,
ba12,
2f79,
9803,
a4d3,
ba29,
255f,
b351,
32b5,
3190,
b138,
3088,
acb1,
3591,
3126,
3237,
b1cb,
a82e,
31b5,
b7c9,
b273,
b846,
ad08,
ab06,
34be,
3268,
2b42,
ab36,
3113,
344e,
a9d9,
359d,
af36,
2c97,
32c3,
3252,
ac07,
3042,
ae8a,
343f,
35f3,
b24c,
3439,
22c1,
a641,
b058,
b691,
b504,
2c1b,
28c3,
b87c,
b11d,
b0bb,
3539,
b2e0,
b3e7,
ad6f,
3552,
a9fb,
34e4,
349b,
b5a5,
b578,
34b1,
b531,
2f4c,
b831,
b5fc,
3822,
367f,
b5df,
b5a4,
b824,
b4e6,
b8ff,
b853,
3499,
2028,
b64a,
b4d0,
b46a,
b932,
36b0,
2d10,
302c,
b6dd,
32a7,
b816,
35d3,
3541,
b6f6,
3043,
afd7,
3743,
347b,
b27b,
addf,
214a,
30f9,
b53f,
3685,
b87b,
b8f2,
ac38,
3406,
302f,
b41c,
b417,
16a5,
b5aa,
38cc,
3585,
b476,
b880,
3533,
354c,
b758,
8cd9,
b955,
3618,
352c,
349d,
370c,
2836,
2d3b,
b68d,
b764,
b9a3,
b804,
b406,
2cee,
31da,
30a2,
b4a3,
32e7,
b09c,
2bf8,
3583,
352f,
b447,
ac5f,
ae6c,
b48e,
2f2f,
b69e,
b178,
b03b,
b2cc,
3612,
2adf,
3401,
2408,
b157,
b0e5,
2bda,
a89b,
3136,
ac94,
3304,
31f7,
2f25,
b8b6,
a9f4,
3347,
b4b5,
b4d4,
b4b8,
b752,
2763,
25cd,
ad04,
29c6,
3171,
34bb,
365e,
337e,
b42f,
2968,
35f4,
b2b6,
b39d,
b481,
b338,
aba1,
3538,
2b3b,
b478,
197e,
329d,
2c9e,
3217,
2c83,
b3f6,
36c9,
35e8,
b607,
b1cc,
a02e,
3031,
b016,
30e4,
3662,
2e86,
2833,
2d91,
b42b,
b6d3,
a7b8,
32f5,
ae2d,
2f6d,
370c,
3507,
b148,
acee,
b2f5,
2d2b,
2cc2,
3273,
ba59,
a8ec,
aadf,
afe6,
2c85,
b05f,
b9c5,
2640,
b513,
3618,
b5ee,
b222,
9166,
32ca,
26b3,
31af,
2c76,
2c0e,
a794,
2cd2,
ad39,
2e89,
b666,
286e,
ada6,
b5ea,
b423,
a98d,
b24c,
2844,
305b,
8dea,
2b60,
30d6,
319b,
30f1,
34f5,
ac88,
2d38,
280f,
b2d2,
b601,
af53,
ac38,
293b,
a93b,
1d89,
a903,
2b46,
30a3,
3095,
2bf6,
313f,
b465,
30d5,
3301,
b5df,
b0ef,
2c6e,
2d81,
b62e,
301a,
32a9,
2d28,
2c4b,
2d89,
ad01,
b457,
ac0f,
340c,
2f1c,
b1e6,
3551,
3436,
b0f7,
b11b,
b436,
3086,
30df,
a925,
b960,
2c7f,
ac58,
a8d8,
2d28,
b02e,
bbb4,
a900,
a5ba,
37b9,
b836,
b285,
2b95,
31f3,
2d83,
b0cc,
ad15,
2e92,
a9eb,
b12d,
b1f8,
a5a8,
b054,
30eb,
b07b,
b015,
27ea,
323e,
aa34,
31e8,
3223,
b294,
2d1b,
ae3f,
ae37,
ac9b,
32b9,
3629,
ac15,
2ccf,
a927,
a42e,
b59a,
9b67,
ac96,
20e8,
32e4,
21aa,
2f5d,
3483,
aaa1,
adc7,
3126,
b0c0,
b204,
ad9e,
b6db,
a690,
3138,
3122,
a847,
333c,
32e8,
346e,
26d3,
9148,
b145,
b591,
b3b6,
b092,
28c0,
af90,
36dc,
34e1,
af16,
b181,
b00e,
3254,
a0e8,
aaf2,
a1b4,
2f5b,
b126,
2f16,
3393,
28cc,
b8a5,
2538,
28c1,
2d65,
1a18,
b4df,
a60e,
314f,
305b,
b2e4,
347e,
3117,
b21b,
b149,
b155,
3382,
2ddc,
a5a5,
b46e,
2972,
25b6,
2f7d,
b23e,
acd8,
2dad,
a479,
34a5,
a2ab,
b0b5,
ae14,
3828,
2b4e,
26f3,
209a,
b219,
34ae,
b6ba,
296c,
2230,
32bd,
a848,
20b3,
35a8,
ac5c,
acfd,
31f0,
2f37,
ae0d,
b321,
327a,
ab07,
b257,
2efb,
335b,
2c35,
360f,
2f86,
3462,
adc2,
ae79,
add4,
b156,
b53e,
b852,
2f9c,
2025,
2fab,
344a,
37bb,
aac3,
3772,
a2d1,
af0a,
b2a2,
34ef,
aa5b,
af5b,
2849,
34be,
33ab,
34c5,
b04d,
253a,
a449,
33a5,
b5c2,
ac5a,
24fb,
3487,
b343,
35fd,
2f03,
b132,
a9cd,
b452,
32d1,
2835,
a8dd,
b30e,
2b00,
31d5,
2f85,
b4be,
b465,
31ea,
a441,
3586,
30e3,
2c18,
2d79,
3785,
a5b3,
2ce3,
3373,
acef,
3809,
b667,
343f,
2407,
32fc,
b4cd,
3225,
365b,
b570,
aff7,
35d2,
31fd,
305d,
b6f2,
aa14,
2458,
ae8d,
3486,
31ee,
a161,
2a5d,
ac18,
3055,
2aa4,
aae1,
ab4f,
b41b,
b4f3,
b6c0,
357a,
1d62,
2a87,
277a,
bb58,
b134,
38a4,
8b21,
28dc,
26be,
293e,
2f24,
33c1,
b0af,
322f,
ac70,
3024,
afa5,
9add,
3384,
3264,
3152,
b097,
b15f,
36d4,
2f0b,
36ee,
3486,
b1d7,
af4d,
2dfd,
3420,
ae86,
34c7,
3151,
b416,
3147,
33f7,
b042,
b210,
20ae,
2054,
30b4,
3123,
289d,
acf3,
3379,
b001,
ae5e,
334e,
2d94,
31dd,
2bee,
9aac,
a9fc,
2fe5,
b444,
2cd2,
3248,
b4e5,
b40e,
32b5,
2d6d,
ae86,
a8ed,
ab11,
b00c,
ad54,
3783,
30e7,
a40b,
ac0b,
244c,
302e,
2b4b,
2398,
af19,
b077,
a39f,
aa84,
2dd4,
b143,
34d2,
3098,
bc0f,
b507,
32e3,
288e,
a8ac,
3044,
afdf,
30f3,
b58f,
b23a,
2b57,
a12f,
b553,
ae65,
b209,
3346,
ab9d,
3244,
b413,
a79f,
34bf,
35f8,
3307,
348f,
ac9e,
b084,
2ee4,
3238,
ae84,
3645,
3133,
ac06,
318a,
31e0,
22a5,
b40f,
a66f,
b119,
21a4,
32ed,
2d31,
9a58,
ab36,
b25d,
ac1b,
3604,
2f07,
3471,
2187,
a6da,
ae02,
2c36,
b494,
2bb6,
3380,
a254,
b0a1,
2afd,
2a11,
b1bb,
28ed,
2074,
21e2,
2daf,
2a4e,
2c1d,
31f6,
a96c,
3197,
31e6,
2a2b,
16c7,
a880,
b516,
2385,
3228,
31ca,
b50c,
345a,
350b,
b1db,
b47f,
a4f0,
3261,
3098,
3112,
b0c6,
9c95,
bc42,
b609,
317b,
2b4f,
b66e,
b531,
b227,
3663,
a795,
2eae,
2c28,
2ebd,
3473,
3495,
a844,
1d90,
b2cd,
ac68,
b268,
2464,
b6eb,
3521,
8ba3,
ad5b,
2f83,
2efd,
acdc,
b1bc,
2712,
adb6,
2dc4,
2b3c,
b1cf,
b1e3,
aaf5,
b67b,
2521,
348e,
b440,
328f,
ac58,
2a0b,
2c89,
3373,
b0bd,
b384,
3480,
2dc1,
9e8f,
2d6b,
b176,
b444,
3228,
b5ee,
34bc,
2de2,
34c0,
acdd,
3563,
32e3,
33ef,
2ebe,
a410,
a6fd,
2c44,
b40c,
a096,
3404,
3343,
b882,
aea4,
369e,
3251,
b34c,
b287,
353e,
2bf4,
30ae,
b0d1,
3423,
bb3e,
b679,
3027,
3219,
b8c6,
b544,
b0a1,
3743,
20b6,
ac9c,
ac82,
acd3,
2bf5,
2911,
b07d,
b392,
afe7,
ae70,
b56a,
1f80,
b97c,
2edd,
b518,
3362,
b532,
a7da,
b239,
b3c7,
3176,
b228,
3025,
af68,
30f5,
af35,
b0d8,
b79b,
2bc8,
3755,
ba10,
2e4a,
b483,
291a,
2c18,
35e0,
b06a,
a947,
2dc6,
3489,
2ac3,
32f9,
277a,
b38c,
aef8,
b1ee,
38d0,
b376,
35e1,
b602,
a9a5,
2cea,
3437,
1c01,
accd,
2cc0,
af34,
b259,
b59f,
3223,
3852,
b86d,
b4a0,
b75e,
3473,
b143,
2897,
b2e3,
3374,
b093,
ac8f,
3460,
b0c0,
acbe,
343a,
b2db,
ab73,
b815,
b57f,
37a2,
21b9,
b50f,
b629,
b3c2,
2ab8,
b5ce,
adff,
b27a,
a99a,
b040,
b561,
b507,
b203,
3194,
35d4,
a10d,
28c2,
3120,
b4f5,
a1a3,
b23a,
b2db,
a7ba,
32ac,
3417,
a9b7,
b781,
b25f,
2a25,
3187,
b5bd,
3139,
adf7,
b543,
a8e4,
a8d3,
b68a,
b4a7,
b4bd,
b108,
b537,
3563,
2dac,
332b,
b171,
b1a0,
ae51,
aea0,
3439,
b8b3,
3227,
b453,
34f3,
2303,
acdd,
ada9,
b3e8,
aee1,
b689,
aedc,
ab02,
b0ad,
341c,
3178,
b2e6,
af4b,
b49c,
3503,
85d8,
3678,
b5f3,
3522,
2ce8,
b78c,
359f,
b264,
b53d,
b0b4,
b3db,
338b,
b50f,
3860,
a848,
b8e2,
2dad,
3350,
2b73,
35b1,
2e30,
a1c9,
354b,
3496,
b884,
3386,
2c6b,
9e9c,
b4d1,
b2b8,
b26a,
aef3,
24cf,
ac83,
3807,
2c4c,
1d78,
382e,
341c,
a1b2,
a8fc,
3643,
2af6,
af47,
b023,
b2ce,
2d07,
30fd,
300c,
b38b,
afa0,
359d,
2f96,
2d5b,
3011,
b439,
3835,
368a,
affb,
3020,
a91d,
3448,
38b5,
219f,
3568,
3559,
a822,
ad7b,
b524,
b5b3,
b43c,
3715,
ad58,
a2b4,
332e,
b426,
3679,
2883,
b84f,
b0f2,
31cb,
a597,
b92d,
2d87,
3087,
b2ff,
3561,
b52a,
b6da,
b60f,
b486,
3387,
b0d8,
354f,
b2c5,
2d98,
1b5b,
a097,
a9ef,
9e5c,
aef8,
a959,
3400,
add3,
b5c8,
2bcd,
33ad,
b24a,
2fd0,
a3d1,
b04b,
3402,
ad05,
b23e,
a514,
2d37,
2f67,
343b,
35aa,
2ccc,
263f,
3084,
1d7a,
b006,
af4c,
b591,
2084,
ae4a,
ad26,
b043,
3222,
9726,
ae40,
a871,
3374,
adc6,
37fd,
a6ec,
ba27,
a7c5,
327f,
b060,
2ae3,
af83,
325c,
131a,
a071,
a9fe,
b34b,
ae0b,
b219,
3a38,
236a,
276a,
21d7,
a43e,
355f,
336c,
ba2f,
a9e3,
a2a9,
2f6c,
b4ea,
b118,
19ed,
28df,
ace4,
b862,
b718,
aaea,
2e26,
3280,
ac48,
35c4,
33dd,
3327,
b08f,
b19f,
b492,
ac8e,
b447,
311f,
aa53,
243a,
abba,
b084,
201e,
ad07,
26a8,
b4b2,
2c48,
323f,
aa3b,
a2c8,
acff,
2af5,
328c,
33b0,
3214,
3499,
aaf8,
3320,
af46,
b6d4,
a5de,
b2a2,
aeb5,
b446,
295b,
ade4,
3621,
2baf,
a6bb,
ac36,
367f,
abb6,
29af,
b477,
b791,
b1be,
2f0f,
26ac,
2818,
3133,
b0bd,
32e2,
2ceb,
ab92,
b533,
2f41,
2ed9,
3732,
2cdb,
32b5,
2dbf,
33c4,
326f,
341e,
b861,
2622,
aca5,
2cae,
b2ac,
9ca9,
320b,
ab9f,
ace6,
b0d8,
b4e1,
322b,
244a,
9c06,
af51,
34a0,
34a4,
2d4f,
b0ef,
2276,
ac59,
a9f7,
b124,
3066,
a642,
2eb2,
2e44,
2819,
b06e,
2f92,
abf5,
aec6,
2fa0,
a795,
3403,
2fda,
a193,
ad1c,
2c26,
33a0,
3165,
32ee,
a287,
346c,
b0bd,
b1dd,
a7a3,
2d05,
a91b,
ae3d,
321b,
b094,
354a,
31f8,
22fd,
a816,
332b,
b4db,
adbb,
af21,
b386,
ade3,
33a5,
351f,
2e4d,
34a0,
acde,
3210,
2921,
ac37,
ae54,
215c,
2e18,
3843,
3355,
30c5,
290b,
342c,
364e,
3148,
2e8a,
30ac,
ae06,
245b,
a844,
ad96,
301a,
2592,
b10d,
33b2,
20cc,
3471,
30f9,
2b0a,
2c1d,
2d60,
3396,
29de,
2be2,
a7c7,
2d17,
ad30,
31af,
29f0,
b0c2,
b109,
3133,
2ab1,
ad66,
2e23,
3037,
ae76,
3082,
a08a,
3362,
356f,
a5a1,
a3af,
b0bf,
3003,
317c,
3445,
2946,
347f,
25b1,
a560,
a798,
3578,
28b2,
b2ab,
3555,
2f16,
35b9,
30ce,
340f,
306c,
327e,
afaf,
2ad0,
b5e7,
350e,
aa3f,
31e9,
37d2,
28f4,
350f,
2e56,
33d4,
243d,
a525,
2e1d,
b285,
3041,
346e,
364e,
3382,
2c42,
3293,
b823,
ada0,
3606,
b2c8,
24ab,
a048,
314a,
ad10,
ad8f,
aec1,
b185,
33ab,
2e01,
2ef4,
2871,
3055,
acbd,
3385,
314c,
3134,
334c,
afda,
29ea,
aec1,
2f70,
af6b,
2ac8,
ae5e,
30a6,
2c56,
af41,
3098,
352e,
3054,
310c,
2fdf,
30db,
327a,
b05e,
2b99,
b31b,
b2c5,
24bd,
2e59,
aeac,
3191,
2e98,
3295,
30dd,
34ab,
27fc,
b40b,
3192,
297a,
3477,
a6e5,
28b5,
2b37,
3500,
ad4d,
afc7,
b8bc,
3599,
2343,
2fb7,
358e,
a3c7,
adda,
1e95,
2e8c,
aaf7,
ac84,
3569,
adf4,
3118,
2e11,
3898,
29af,
2da9,
3475,
bd74,
b3c2,
309d,
2c72,
a42b,
2e28,
3178,
aa18,
b93b,
b2d8,
269b,
2fbb,
2cfc,
30d6,
1624,
a40a,
ac11,
3446,
3181,
3373,
31a2,
370b,
2a0d,
b1cc,
26c7,
2ce4,
2c1c,
3308,
b075,
2c1b,
304b,
331a,
354a,
30ea,
3458,
af7f,
ab4c,
965a,
2c6d,
2f7c,
b3c0,
b3b6,
a3c2,
aeae,
2a22,
2e72,
2399,
30c6,
3590,
3141,
aef7,
b301,
b12f,
a7dc,
36e8,
3065,
2d4f,
a417,
327d,
b204,
a549,
b947,
32f5,
2cda,
2ed6,
30e3,
2c87,
b543,
2c3e,
a1c7,
a05b,
a83d,
2fdb,
341a,
304c,
2996,
3748,
b223,
b347,
34fc,
b359,
b4e4,
ab88,
344c,
1a97,
3607,
31e9,
adea,
bc53,
b817,
2b53,
2449,
a61b,
b1d8,
a8bd,
2de0,
3182,
31b9,
30e6,
af2c,
a600,
3938,
b4fa,
b14e,
b438,
3554,
23a0,
35cd,
b7b0,
305a,
28c8,
315f,
34b6,
ac77,
308b,
b777,
a10b,
2a4a,
2c4b,
2799,
ac17,
24b6,
b1ef,
b864,
a894,
2f1c,
b5ef,
314f,
346c,
aa9d,
26ba,
2fc2,
b117,
b61e,
a837,
2f6b,
b0f6,
acc8,
a9b5,
b716,
26cc,
b80c,
32aa,
2516,
30a4,
b10e,
2e15,
afa3,
2fca,
b45e,
2c0e,
2869,
a845,
3187,
286b,
27c5,
35f3,
b770,
b966,
3447,
368e,
2f47,
b1fe,
383b,
21f0,
32e9,
2245,
2e15,
b515,
b596,
31fd,
2f1a,
ac92,
2df1,
ae7c,
34eb,
353d,
b0c5,
301a,
acad,
b518,
3469,
b1b9,
b57f,
a7b9,
3429,
21b7,
3140,
b512,
b592,
a7b0,
32d7,
ae0a,
b6a4,
331f,
b82c,
afcd,
301a,
315c,
ad83,
30b2,
2d89,
b60a,
b853,
ad4e,
3650,
b7db,
b560,
3136,
2b39,
2cbc,
2e23,
ab99,
b35b,
ad3f,
35b3,
34bb,
ab09,
3296,
adec,
3298,
b733,
334b,
2cc2,
32d1,
ae37,
a585,
b3fe,
34e2,
b548,
ac59,
acb3,
aebd,
90e0,
ae63,
33d9,
341a,
b3a7,
b862,
b605,
381f,
258b,
a8ea,
aee9,
3313,
b1ee,
27ce,
2d9e,
af3e,
30f6,
3312,
aabb,
28f2,
afa8,
b5d1,
332c,
b050,
b710,
b53f,
af51,
b0c7,
b375,
b38a,
b1c8,
2f22,
b25a,
2af5,
b3cb,
b3a6,
acb6,
382d,
2789,
1b91,
9953,
b264,
b2d3,
b18e,
2543,
af66,
262c,
30ec,
abfb,
b8e0,
b1ed,
1f90,
31df,
b60d,
990f,
a90b,
ad79,
aad4,
2bcb,
b2c1,
b2ff,
b039,
af36,
b1c5,
32d1,
321a,
317c,
2ab5,
af47,
2c7e,
30cb,
2bb1,
b568,
3414,
b34a,
34a6,
ad0c,
2713,
22f1,
aeaa,
3120,
b2d6,
29ef,
25fe,
348a,
3207,
af25,
31a4,
2c45,
33d2,
2a4e,
ac0a,
a5eb,
b2b3,
2613,
347a,
2c7c,
35a5,
36cb,
a877,
a883,
b3f8,
b5c3,
ab68,
33d9,
b20b,
b7ef,
2c4c,
30ea,
2d13,
af3f,
380f,
b27c,
3694,
b1af,
b631,
b3a8,
3345,
2f82,
b5b8,
303b,
31d0,
25d3,
b4a0,
3321,
a901,
b1fd,
b19d,
a5c7,
359f,
3078,
aca7,
ac12,
3882,
b6c9,
3476,
aa73,
9892,
b368,
3478,
30b1,
a815,
a48f,
35ed,
b78b,
b06f,
3409,
346e,
afc9,
a9df,
34be,
358f,
2d6f,
383a,
b603,
a7fa,
adb8,
aab0,
963d,
3326,
a9ed,
a0a4,
3807,
a843,
b01a,
3513,
b573,
ab2c,
36d2,
ad09,
26cf,
b41d,
ac9d,
b4e7,
afb7,
38e0,
b10d,
301c,
3421,
b1b7,
33f2,
b5b1,
b409,
2c52,
255e,
2eb4,
b7ec,
b206,
204f,
b5b8,
b7bc,
3136,
3385,
3a0e,
abfb,
b746,
b846,
3150,
b12f,
bada,
b6a6,
294c,
b0e7,
ba2d,
3642,
2dd9,
2dbe,
3302,
3961,
3682,
2f4a,
2866,
b058,
3acd,
b942,
3577,
b6b3,
acba,
b888,
32ac,
2818,
a93c,
2c7a,
39c5,
b890,
b0bc,
313e,
39de,
b812,
b601,
3852,
2ede,
a5bd,
34bc,
b95e,
b25d,
b89c,
a4d5,
abad,
1d68,
2def,
3157,
3995,
b375,
a640,
3411,
b2ab,
2ac9,
3235,
b1df,
2ee7,
1b64,
b526,
b43f,
35a5,
387d,
b40d,
24f0,
a945,
aa6a,
3044,
b3e3,
b2d7,
30de,
31e0,
b092,
b8f7,
2900,
9f2d,
ad7f,
b530,
354c,
2d64,
385d,
21ef,
b7b8,
b89b,
355c,
aec2,
b813,
b4e3,
33b0,
2b15,
b8e8,
30c6,
28bd,
b116,
a6be,
387a,
3841,
359d,
2c1e,
3297,
3a31,
bb9e,
3363,
b4ca,
2d1d,
baaa,
36f5,
2800,
a974,
351e,
3946,
b7c6,
2866,
35f4,
38d8,
ba95,
b831,
39c4,
37c4,
2b95,
2207,
b968,
2e5c,
b1cb,
0485,
ae3e,
acd3,
2ec0,
2fbb,
39fb,
2af5,
1b29,
2e0b,
b1b0,
2e1b,
3059,
a884,
34d9,
365c,
b5c6,
b076,
37bb,
3820,
b08e,
3322,
341c,
2826,
312c,
a3a7,
1edf,
2dc2,
3608,
b311,
b7d5,
3556,
aaea,
2e76,
b2d4,
3720,
9f69,
3423,
b0a5,
b4ef,
b4ec,
349e,
2c08,
ac86,
a7fc,
35fc,
2a7e,
b5cb,
2dd7,
329e,
b42b,
b09d,
37e8,
35f2,
32db,
2dc5,
34c9,
3935,
ba5a,
2eed,
3137,
2cb6,
baf0,
3974,
33cb,
b114,
395e,
38f6,
b5af,
3100,
35cd,
38a4,
baff,
b187,
3985,
37d5,
34ac,
b441,
b404,
365f,
abed,
9942,
ac1a,
aa31,
b038,
a04b,
3bf3,
30e9,
af8f,
a534,
ad97,
2edf,
3268,
340e,
3423,
35a7,
b1ba,
b2ba,
3681,
382a,
292e,
36d5,
3719,
ada8,
313e,
25dd,
33e3,
3108,
3033,
b2eb,
b937,
2e3e,
aa92,
ad0b,
b690,
36f5,
ae5f,
346e,
b0f9,
b414,
b584,
3392,
302c,
b423,
acca,
3415,
2a4c,
b53e,
323f,
3261,
b69d,
b3d5,
34f5,
a993,
34e5,
aedb,
3794,
3810,
b88e,
31e3,
33f5,
13ec,
b839,
38c8,
3650,
26bf,
3712,
381f,
ac32,
342d,
33e8,
3899,
b9f7,
24ef,
38ab,
341e,
3344,
b3a9,
b228,
3819,
af9e,
ac34,
2e25,
2f9a,
b028,
b003,
3afe,
2fa2,
318a,
b128,
a672,
b459,
363a,
31c7,
3014,
2ea9,
b675,
b332,
31b4,
3748,
a86e,
3752,
37e6,
2db6,
37c0,
3050,
2db7,
35a7,
ae15,
2a2b,
b880,
ac59,
b203,
3022,
b85c,
34f8,
2ac9,
240d,
ab08,
abd1,
b716,
2c1c,
3193,
b80a,
b456,
3675,
a7a9,
b4c9,
358f,
30e6,
b557,
b047,
310d,
b511,
3672,
aeba,
3769,
3850,
bafd,
3571,
3639,
9afe,
af3c,
348d,
36b6,
2d06,
36f2,
36b3,
b132,
3505,
37c4,
38b0,
ba66,
3231,
3775,
31f1,
2f8a,
b1f2,
b354,
37c5,
b6d7,
a324,
245b,
3518,
2c27,
ad33,
3852,
3314,
3122,
b539,
19e2,
bb4d,
345d,
3819,
2df6,
3841,
b864,
a920,
3777,
2f20,
3237,
286b,
373a,
2f5c,
3648,
36ca,
ab81,
36fb,
b492,
af8e,
b880,
3301,
b038,
34c9,
b9a7,
357c,
949c,
b361,
b3a2,
2532,
b7e2,
2cd1,
35a4,
b5db,
b4ea,
378e,
b5c1,
b832,
33c9,
3107,
2ca3,
ae00,
2acc,
b5ca,
341b,
a485,
35dd,
37bc,
b9c2,
2c42,
3842,
a957,
b80b,
3323,
361e,
35bd,
375a,
3800,
b857,
373a,
38d4,
37c9,
bc0c,
30bc,
38b0,
38b4,
350b,
b51d,
ba2f,
3561,
af1b,
a882,
2d3b,
30cd,
3140,
b3ca,
37ee,
3456,
21f8,
ba01,
b4b2,
b522,
31ec,
361b,
322d,
35bd,
b800,
20f4,
376d,
afdc,
3472,
b49c,
33da,
2ecd,
30f7,
357c,
b55b,
34fc,
b297,
b1db,
b4aa,
3453,
24a0,
aefa,
b77a,
3097,
2d9e,
b17d,
af10,
a478,
b75b,
318b,
32b2,
2c22,
b315,
3413,
b8c1,
ba77,
339a,
301d,
3784,
3412,
2cb3,
b953,
3539,
23f6,
ae80,
3603,
b949,
344b,
34f1,
a9e8,
b80b,
b2b6,
3209,
31c7,
2ef8,
301f,
b902,
30a2,
3815,
3823,
b920,
b289,
3694,
3a14,
2d03,
b6af,
baea,
29f7,
b54e,
9980,
2927,
2ffc,
a933,
af3b,
35c6,
ac83,
ae03,
b815,
b037,
3486,
2d57,
38af,
315b,
b000,
b440,
b0f1,
3546,
313a,
308b,
affb,
31d0,
216a,
3226,
25a5,
b32c,
270f,
29c7,
b5d4,
301d,
2ea5,
b006,
2ec9,
b637,
2f57,
b1b9,
29ff,
a832,
346e,
b436,
a57b,
32ca,
b262,
acef,
aaa0,
b656,
b4ed,
a957,
3011,
3500,
2521,
aa96,
b48a,
aafa,
adec,
2e32,
2fb0,
b6cc,
2c8a,
20b3,
290f,
b0c9,
b667,
345e,
2d80,
b273,
315e,
b4b5,
298c,
313c,
32d4,
b704,
2b3d,
349c,
3701,
ace5,
b123,
b74e,
1fcf,
b8c4,
2ac5,
2ca7,
3127,
b022,
aa9b,
3979,
3201,
b50d,
b152,
b00d,
2eb0,
25d2,
9da3,
b032,
af10,
b1df,
2629,
3095,
ac26,
3211,
34e0,
2c16,
af3e,
ad36,
b176,
3490,
35f7,
af86,
b66f,
aac5,
980a,
b566,
25b0,
30fa,
304c,
b3b6,
3023,
a885,
b24e,
2a28,
2dc3,
25c7,
a487,
ad9d,
b7be,
2f86,
3184,
b727,
a495,
3124,
33ab,
2cee,
2fca,
b46b,
ad36,
32e0,
b278,
30d7,
b409,
b279,
a400,
3206,
b762,
321f,
3248,
b5c6,
a9a5,
35df,
36b1,
ad27,
a60c,
2dfe,
1ae0,
ae7c,
31c8,
b0dd,
ad1c,
30d3,
334c,
26d8,
29c7,
a919,
a5c5,
2e93,
b552,
30d4,
3424;