memory_initialization_radix = 16;
memory_initialization_vector = 
b02b,
2e31,
ac6b,
aba5,
2d93,
3357,
33fd,
3455,
3196,
a9a4,
9454,
b052,
3078,
288b,
32e6,
213e,
a953,
b00c,
23e8,
2ff9,
2eb8,
afca,
9d64,
2fcb,
34c0,
32de,
2c49,
3191,
2f71,
a9ff,
274c,
341b,
ab28,
2db6,
30db,
af81,
32db,
2e79,
31a3,
2a15;